/* ltm_curves.h
 * Copyright (c) 2014-2016 Qualcomm Technologies, Inc.
 * All Rights Reserved.
 * Confidential and Proprietary - Qualcomm Technologies, Inc.*
 */

#ifndef __LTM_CURVES_H__
#define __LTM_CURVES_H__

uint32_t shift_scale_default[];
uint32_t shift_curve_default[];
uint32_t shift_scale_unpack_default[];
uint32_t master_scale_default[];
uint32_t master_scale_default_0_375[];
uint32_t master_curve_default[];
uint32_t master_curve_default_0_375[];
uint32_t master_unpack_curve_default_0_375[];
uint32_t mask_default[];
uint32_t weight_default[];
uint32_t weight_default_3x3kernel[];
uint32_t weight_default_1x1kernel[];
int adrc_master_curve_default[];
int adrc_master_scale_curve_default[];
uint16_t weight_new_3x3kernel[];
uint16_t weight_new_1x1kernel[];

/* default tables are only used when setprop is set */
/* default DMI entries, already packed */
uint32_t weight_default[] = {
  0x0000070e, 0x00073d7d, 0x000e7dff, 0x0000050b,
  0x00053063, 0x000b63cb, 0x00000205, 0x00021832,
  0x00053267, 0x00000001, 0x00000710, 0x00011021,
  0x00000000, 0x00000103, 0x00000306, 0x00000000,
  0x00000000, 0x00000000
};

uint32_t weight_default_3x3kernel[] = {
  0x00000000, 0x00007db3, 0x0000b3ff, 0x00000000,
  0x0000638e, 0x00008ecb, 0x00000000, 0x00003248,
  0x00004867, 0x00000000, 0x00001017, 0x00001721,
  0x00000000, 0x00000304, 0x00000406, 0x00000000,
  0x00000000, 0x00000000
};

uint32_t weight_default_1x1kernel[] = {
  0x00000000, 0x00000000, 0x000000ff, 0x00000000,
  0x00000000, 0x000000cb, 0x00000000, 0x00000000,
  0x00000071, 0x00000000, 0x00000000, 0x00000037,
  0x00000000, 0x00000000, 0x00000014, 0x00000000,
  0x00000000, 0x00000004
};


uint16_t weight_new_3x3kernel[] = {
  255,   89,   0,   89,   75,   0,   0,   0,   0,
  203,   71,   0,   71,   60,   0,   0,   0,   0,
  113,   39,   0,   39,   33,   0,   0,   0,   0,
  55,    19,   0,   19,   16,   0,   0,   0,   0,
  20,    7,    0,   7,    5,    0,   0,   0,   0,
  4,     1,    0,   1,    1,    0,   0,   0,   0
};

uint16_t weight_new_1x1kernel[] = {
  255,   0,    0,    0,   0,    0,   0,   0,   0,
  203,   0,    0,    0,   0,    0,   0,   0,   0,
  113,   0,    0,    0,   0,    0,   0,   0,   0,
  55,    0,    0,    0,   0,    0,   0,   0,   0,
  20,    0,    0,    0,   0,    0,   0,   0,   0,
  4,     0,    0,    0,   0,    0,   0,   0,   0
};

uint32_t mask_default[] = {
  0x00002000,   0x00002000,   0x00002000,   0x00002000,
  0x0034a000,   0x0034a0d2,   0x0030a1a4,   0x0030a266,
  0x002ba328,   0x002ba3d6,   0x0027a484,   0x0027a522,
  0x0024a5c0,   0x0024a652,   0x0022a6e4,   0x0022a76e,
  0x002127f8,   0x0021287c,   0x00202900,   0x00202980,
  0x00202a00,   0x00202a80,   0x00202b00,   0x00202b80,
  0x00202c00,   0x00202c80,   0x00202d00,   0x00202d80,
  0x00202e00,   0x00202e80,   0x00202f00,   0x00202f80,
  0x00203000,   0x00203080,   0x00203100,   0x00203180,
  0x00203200,   0x00203280,   0x00203300,   0x00203380,
  0x00203400,   0x00203480,   0x00203500,   0x00203580,
  0x00203600,   0x00203680,   0x00203700,   0x00203780,
  0x00203800,   0x00203880,   0x00203900,   0x00203980,
  0x00203a00,   0x00203a80,   0x00203b00,   0x00203b80,
  0x00203c00,   0x00203c80,   0x00203d00,   0x00203d80,
  0x00203e00,   0x00203e80,   0x00203f00,   0x00203f80,
  0x00200000,   0x00200080,   0x00200100,   0x00200180,
  0x00200200,   0x00200280,   0x00200300,   0x00200380,
  0x00200400,   0x00200480,   0x00200500,   0x00200580,
  0x00200600,   0x00200680,   0x00200700,   0x00200780,
  0x00200800,   0x00200880,   0x00200900,   0x00200980,
  0x00200a00,   0x00200a80,   0x00200b00,   0x00200b80,
  0x00200c00,   0x00200c80,   0x00200d00,   0x00200d80,
  0x00200e00,   0x00200e80,   0x00200f00,   0x00200f80,
  0x00201000,   0x00201080,   0x00201100,   0x00201180,
  0x00201200,   0x00201280,   0x00201300,   0x00201380,
  0x00201400,   0x00201480,   0x00201500,   0x00201580,
  0x00201600,   0x00201680,   0x00201700,   0x00201780,
  0x00219800,   0x00219886,   0x0023990c,   0x0023999a,
  0x00279a28,   0x00279ac6,   0x002d1b64,   0x002d1c18,
  0x00321ccc,   0x00321d94,   0x00341e5c,   0x0034df2c,
  0x00001fff,   0x00001fff,   0x00001fff,   0x00001fff,
}                                                                                                                                                                                                                                    ;

uint32_t master_curve_default[] = {
  0x00056000, 0x00055056, 0x000520ab, 0x0004e0fd,
  0x0004a14b, 0x00043195, 0x0003d1d8, 0x00037215,
  0x0002f24c, 0x0002727b, 0x000202a2, 0x0001a2c2,
  0x000142dc, 0x0000d2f0, 0x000082fd, 0x00004305,
  0x007ff309, 0x007fc308, 0x007f9304, 0x007f72fd,
  0x007f52f4, 0x007f32e9, 0x007f22dc, 0x007f12ce,
  0x007f02bf, 0x007ef2af, 0x007f029e, 0x007ef28e,
  0x007ef27d, 0x007ee26c, 0x007ef25a, 0x007ee249,
  0x007ef237, 0x007ef226, 0x007ee215, 0x007ef203,
  0x007ee1f2, 0x007ef1e0, 0x007ef1cf, 0x007ee1be,
  0x007ef1ac, 0x007ee19b, 0x007ef189, 0x007ee178,
  0x007ef166, 0x007ef155, 0x007ee144, 0x007ef132,
  0x007ee121, 0x007ef10f, 0x007ef0fe, 0x007ee0ed,
  0x007ef0db, 0x007ee0ca, 0x007ef0b8, 0x007ee0a7,
  0x007ef095, 0x007ef084, 0x007ee073, 0x007ef061,
  0x007ee050, 0x007ef03e, 0x007ef02d, 0x007f301c
};

uint32_t master_curve_default_0_75[] = { // mild 0.75
  0x40000, 0x40040, 0x3d080, 0x3b0bd,
  0x370f8, 0x3312f, 0x2d162, 0x2a18f,
  0x231b9, 0x1d1dc, 0x181f9, 0x14211,
  0x0f225, 0x09234, 0x0623d, 0x03243,
  0x00246, 0x7fd246, 0x7fa243, 0x7fa23d,
  0x7f7237, 0x7f722e, 0x7f5225, 0x7f521a,
  0x7f420f, 0x7f3203, 0x7f41f6, 0x7f31ea,
  0x7f41dd, 0x7f21d1, 0x7f31c3, 0x7f31b6,
  0x7f31a9, 0x7f319c, 0x7f318f, 0x7f3182,
  0x7f3175, 0x7f3168, 0x7f315b, 0x7f314e,
  0x7f3141, 0x7f2134, 0x7f4126, 0x7f211a,
  0x7f310c, 0x7f40ff, 0x7f20f3, 0x7f30e5,
  0x7f30d8, 0x7f30cb, 0x7f30be, 0x7f30b1,
  0x7f30a4, 0x7f3097, 0x7f308a, 0x7f207d,
  0x7f406f, 0x7f3063, 0x7f2056, 0x7f4048,
  0x7f203c, 0x7f302e, 0x7f4021, 0x7f6015
};

uint32_t master_curve_default_0_50[] = { // weak; 0.5
  0x0002b000, 0x0002a02b, 0x00029055, 0x0002707e,
  0x000250a5, 0x000220ca, 0x0001e0ec, 0x0001c10a,
  0x00017126, 0x0001413d, 0x00010151, 0x0000d161,
  0x0000a16e, 0x00006178, 0x0000417e, 0x00002182,
  0x00000184, 0x007fe184, 0x007fc182, 0x007fc17e,
  0x007fa17a, 0x007fa174, 0x007f916e, 0x007f8167,
  0x007f815f, 0x007f8157, 0x007f814f, 0x007f7147,
  0x007f813e, 0x007f7136, 0x007f712d, 0x007f7124,
  0x007f811b, 0x007f7113, 0x007f710a, 0x007f8101,
  0x007f70f9, 0x007f70f0, 0x007f80e7, 0x007f70df,
  0x007f70d6, 0x007f70cd, 0x007f80c4, 0x007f70bc,
  0x007f70b3, 0x007f80aa, 0x007f70a2, 0x007f7099,
  0x007f7090, 0x007f8087, 0x007f707f, 0x007f7076,
  0x007f806d, 0x007f7065, 0x007f705c, 0x007f7053,
  0x007f804a, 0x007f7042, 0x007f7039, 0x007f8030,
  0x007f7028, 0x007f701f, 0x007f8016, 0x007f900e
};

uint32_t master_curve_default_0_375[] = { // weak1; 0.375
 0x00100000,    0x00100040,    0x00100080,    0x001000c0,
 0x000f0100,    0x000f013c,    0x000f0178,    0x000f01b4,
 0x000d81f0,    0x000d8226,    0x000d025c,    0x000d0290,
 0x000b02c4,    0x000b02f0,    0x000a831c,    0x000a8346,
 0x00090370,    0x00090394,    0x000703b8,    0x000703d4,
 0x000603f0,    0x00060408,    0x00050420,    0x00050434,
 0x00040448,    0x00040458,    0x00020468,    0x00020470,
 0x00018478,    0x0001847e,    0x00010484,    0x00010488,
 0x0000048c,    0x0000048c,    0x0fff048c,    0x0fff0488,
 0x0ffe8484,    0x0ffe847e,    0x0ffe8478,    0x0ffe8472,
 0x0ffe046c,    0x0ffe0464,    0x0ffd845c,    0x0ffd8452,
 0x0ffd8448,    0x0ffd843e,    0x0ffd0434,    0x0ffd0428,
 0x0ffd041c,    0x0ffd0410,    0x0ffd0404,    0x0ffd03f8,
 0x0ffd03ec,    0x0ffd03e0,    0x0ffc83d4,    0x0ffc83c6,
 0x0ffd03b8,    0x0ffd03ac,    0x0ffc83a0,    0x0ffc8392,
 0x0ffd0384,    0x0ffd0378,    0x0ffc836c,    0x0ffc835e,
 0x0ffd0350,    0x0ffd0344,    0x0ffc8338,    0x0ffc832a,
 0x0ffd031c,    0x0ffd0310,    0x0ffc8304,    0x0ffc82f6,
 0x0ffd02e8,    0x0ffd02dc,    0x0ffc82d0,    0x0ffc82c2,
 0x0ffd02b4,    0x0ffd02a8,    0x0ffc829c,    0x0ffc828e,
 0x0ffd0280,    0x0ffd0274,    0x0ffc8268,    0x0ffc825a,
 0x0ffd024c,    0x0ffd0240,    0x0ffc8234,    0x0ffc8226,
 0x0ffc8218,    0x0ffc820a,    0x0ffd01fc,    0x0ffd01f0,
 0x0ffc81e4,    0x0ffc81d6,    0x0ffd01c8,    0x0ffd01bc,
 0x0ffc81b0,    0x0ffc81a2,    0x0ffd0194,    0x0ffd0188,
 0x0ffc817c,    0x0ffc816e,    0x0ffd0160,    0x0ffd0154,
 0x0ffc8148,    0x0ffc813a,    0x0ffd012c,    0x0ffd0120,
 0x0ffc8114,    0x0ffc8106,    0x0ffc80f8,    0x0ffc80ea,
 0x0ffd00dc,    0x0ffd00d0,    0x0ffd00c4,    0x0ffd00b8,
 0x0ffc80ac,    0x0ffc809e,    0x0ffd0090,    0x0ffd0084,
 0x0ffc8078,    0x0ffc806a,    0x0ffc805c,    0x0ffc804e,
 0x0ffd0040,    0x0ffd0034,    0x0ffd8028,    0x0ffd801e,
};

uint32_t master_unpack_curve_default_0_375[] = { // weak1; 0.375
  0, 64, 128, 192, 256, 316, 376, 436, 496, 550, 604, 656, 708, 752, 796,
  838, 880, 916, 952, 980, 1008, 1032, 1056, 1076, 1096, 1112, 1128, 1136,
  1144, 1150, 1156, 1160, 1164, 1164, 1164, 1160, 1156, 1150, 1144, 1138,
  1132, 1124, 1116, 1106, 1096, 1086,1076, 1064, 1052, 1040, 1028, 1016,
  1004, 992, 980, 966, 952, 940, 928, 914, 900, 888, 876, 862, 848, 836,
  824, 810, 796, 784, 772, 758, 744, 732, 720, 706, 692, 680, 668, 654,
  640, 628, 616, 602, 588, 576, 564, 550, 536, 522, 508, 496, 484, 470,
  456, 444, 432, 418, 404, 392, 380, 366, 352, 340, 328, 314, 300, 288,
  276, 262, 248, 234, 220, 208, 196, 184, 172, 158, 144, 132, 120, 106,
  92, 78, 64, 52, 40, 30, 20
};

uint32_t master_curve_default_0_25[] = { // weaker; 0.25
  0x00015000, 0x00015015, 0x0001502a, 0x0001303f,
  0x00013052, 0x00011065, 0x0000f076, 0x0000e085,
  0x0000b093, 0x0000a09e, 0x000080a8, 0x000070b0,
  0x000050b7, 0x000030bc, 0x000020bf, 0x000010c1,
  0x000000c2, 0x007ff0c2, 0x007fe0c1, 0x007fe0bf,
  0x007fd0bd, 0x007fd0ba, 0x007fc0b7, 0x007fc0b3,
  0x007fc0af, 0x007fc0ab, 0x007fc0a7, 0x007fc0a3,
  0x007fc09f, 0x007fb09b, 0x007fc096, 0x007fb092,
  0x007fc08d, 0x007fc089, 0x007fb085, 0x007fc080,
  0x007fc07c, 0x007fb078, 0x007fc073, 0x007fc06f,
  0x007fb06b, 0x007fc066, 0x007fc062, 0x007fb05e,
  0x007fc059, 0x007fc055, 0x007fb051, 0x007fc04c,
  0x007fb048, 0x007fc043, 0x007fc03f, 0x007fb03b,
  0x007fc036, 0x007fc032, 0x007fb02e, 0x007fc029,
  0x007fc025, 0x007fb021, 0x007fc01c, 0x007fc018,
  0x007fb014, 0x007fc00f, 0x007fc00b, 0x007fc007
};

uint32_t master_scale_default[] = {
  0x00695680, 0x006dc515, 0x007163f1, 0x00746307,
  0x0076e24d, 0x0078f1bb, 0x007a814a, 0x007bd0f2,
  0x007ce0af, 0x007db07d, 0x007e4058, 0x007ec03c,
  0x007f3028, 0x007f601b, 0x007f9011, 0x007fc00a,
  0x007fd006, 0x007ff003, 0x007ff002, 0x007ff001,
  0x00000000, 0x00000000, 0x00000000, 0x00000000,
  0x00000000, 0x00000000, 0x00000000, 0x00000000,
  0x00000000, 0x00000000, 0x00000000, 0x00000000,
  0x00000000, 0x00000000, 0x00000000, 0x00000000,
  0x00000000, 0x00000000, 0x00000000, 0x00000000,
  0x00000000, 0x00000000, 0x00000000, 0x00000000,
  0x00000000, 0x00000000, 0x00000000, 0x00000000,
  0x00000000, 0x00000000, 0x00000000, 0x00000000,
  0x00000000, 0x00000000, 0x00000000, 0x00000000,
  0x00000000, 0x00000000, 0x00000000, 0x00000000,
  0x00000000, 0x00000000, 0x00000000, 0x00000000
};

uint32_t master_scale_default_0_375[] = {
 0x0fad1400, 0x0fad12b4, 0x0fb51168, 0x0fb5103c,
 0x0fbc8f10, 0x0fbc8e02, 0x0fc30cf4, 0x0fc30c00,
 0x0fca0b0c, 0x0fca0a34, 0x0fcf895c, 0x0fcf889a,
 0x0fd587d8, 0x0fd5872e, 0x0fda8684, 0x0fda85ee,
 0x0fdf8558, 0x0fdf84d6, 0x0fe48454, 0x0fe483e6,
 0x0fe80378, 0x0fe80318, 0x0fec02b8, 0x0fec0268,
 0x0fef8218, 0x0fef81d6, 0x0ff28194, 0x0ff2815e,
 0x0ff50128, 0x0ff500fc, 0x0ff800d0, 0x0ff800b0,
 0x0ff98090, 0x0ff98076, 0x0ffb805c, 0x0ffb804a,
 0x0ffc8038, 0x0ffc802a, 0x0ffe001c, 0x0ffe0014,
 0x0fff000c, 0x0fff0008, 0x0fff8004, 0x0fff8002,
 0x00000000, 0x00000000, 0x00000000, 0x00000000,
 0x00000000, 0x00000000, 0x00000000, 0x00000000,
 0x00000000, 0x00000000, 0x00000000, 0x00000000,
 0x00000000, 0x00000000, 0x00000000, 0x00000000,
 0x00000000, 0x00000000, 0x00000000, 0x00000000,
 0x00000000, 0x00000000, 0x00000000, 0x00000000,
 0x00000000, 0x00000000, 0x00000000, 0x00000000,
 0x00000000, 0x00000000, 0x00000000, 0x00000000,
 0x00000000, 0x00000000, 0x00000000, 0x00000000,
 0x00000000, 0x00000000, 0x00000000, 0x00000000,
 0x00000000, 0x00000000, 0x00000000, 0x00000000,
 0x00000000, 0x00000000, 0x0fff8000, 0x0fffbffe,
 0x0fff3ffc, 0x0fff3ff8, 0x0ffebff4, 0x0ffebfee,
 0x0ffdbfe8, 0x0ffdbfde, 0x0ffc3fd4, 0x0ffc3fc4,
 0x0ffb3fb4, 0x0ffb3fa0, 0x0ff93f8c, 0x0ff93f70,
 0x0ff73f54, 0x0ff73f30, 0x0ff4bf0c, 0x0ff4bede,
 0x0ff2beb0, 0x0ff2be7a, 0x0fef3e44, 0x0fef3e00,
 0x0fecbdbc, 0x0fecbd6e, 0x0fe8bd20, 0x0fe8bcc2,
 0x0fe53c64, 0x0fe53bf8, 0x0fe13b8c, 0x0fe13b10,
 0x0fdcba94, 0x0fdcba06, 0x0fd83978, 0x0fd838d8,
 0x0fd33838, 0x0fd33784, 0x000036d0, 0x000036d0,
};


uint32_t shift_curve_default[] = {
 0x00128000,  0x0012804a,  0x00120094,  0x001200dc,
 0x00118124,  0x0011816a,  0x001081b0,  0x001081f2,
 0x00100234,  0x00100274,  0x000f02b4,  0x000f02f0,
 0x000e832c,  0x000e8366,  0x000e03a0,  0x000e03d8,
 0x000d0410,  0x000d0444,  0x000c0478,  0x000c04a8,
 0x000c04d8,  0x000c0508,  0x000b0538,  0x000b0564,
 0x000a0590,  0x000a05b8,  0x000a05e0,  0x000a0608,
 0x00088630,  0x00088652,  0x00088674,  0x00088696,
 0x000786b8,  0x000786d6,  0x000706f4,  0x00070710,
 0x0006872c,  0x00068746,  0x00060760,  0x00060778,
 0x00050790,  0x000507a4,  0x000487b8,  0x000487ca,
 0x000407dc,  0x000407ec,  0x000307fc,  0x00030808,
 0x00030814,  0x00030820,  0x0002082c,  0x00020834,
 0x0001883c,  0x00018842,  0x00010848,  0x0001084c,
 0x00008850,  0x00008852,  0x00000854,  0x00000854,
 0x0fff0854,  0x0fff0850,  0x0fff084c,  0x0fff0848,
 0x0ffe0844,  0x0ffe083c,  0x0ffe0834,  0x0ffe082c,
 0x0ffd0824,  0x0ffd0818,  0x0ffd080c,  0x0ffd0800,
 0x0ffc07f4,  0x0ffc07e4,  0x0ffc07d4,  0x0ffc07c4,
 0x0ffb07b4,  0x0ffb07a0,  0x0ffb078c,  0x0ffb0778,
 0x0ffa0764,  0x0ffa074c,  0x0ffa0734,  0x0ffa071c,
 0x0ff98704,  0x0ff986ea,  0x0ff906d0,  0x0ff906b4,
 0x0ff88698,  0x0ff8867a,  0x0ff8065c,  0x0ff8063c,
 0x0ff8061c,  0x0ff805fc,  0x0ff785dc,  0x0ff785ba,
 0x0ff70598,  0x0ff70574,  0x0ff68550,  0x0ff6852a,
 0x0ff68504,  0x0ff684de,  0x0ff604b8,  0x0ff60490,
 0x0ff58468,  0x0ff5843e,  0x0ff58414,  0x0ff583ea,
 0x0ff503c0,  0x0ff50394,  0x0ff48368,  0x0ff4833a,
 0x0ff4830c,  0x0ff482de,  0x0ff482b0,  0x0ff48282,
 0x0ff40254,  0x0ff40224,  0x0ff381f4,  0x0ff381c2,
 0x0ff40190,  0x0ff40160,  0x0ff30130,  0x0ff300fc,
 0x0ff380c8,  0x0ff38096,  0x0ff38064,  0x0ff38032,
};

uint32_t shift_scale_default[] = {
 0x0ffa8598, 0x0ffa8582, 0x0ffa856c, 0x0ffa8556,
 0x0ffa8540, 0x0ffa852a, 0x0ffb0514, 0x0ffb0500,
 0x0ffa84ec, 0x0ffa84d6, 0x0ffb04c0, 0x0ffb04ac,
 0x0ffb0498, 0x0ffb0484, 0x0ffb0470, 0x0ffb045c,
 0x0ffb0448, 0x0ffb0434, 0x0ffb8420, 0x0ffb840e,
 0x0ffb03fc, 0x0ffb03e8, 0x0ffb83d4, 0x0ffb83c2,
 0x0ffb83b0, 0x0ffb839e, 0x0ffb838c, 0x0ffb837a,
 0x0ffc0368, 0x0ffc0358, 0x0ffb8348, 0x0ffb8336,
 0x0ffc0324, 0x0ffc0314, 0x0ffc0304, 0x0ffc02f4,
 0x0ffc02e4, 0x0ffc02d4, 0x0ffc02c4, 0x0ffc02b4,
 0x0ffc02a4, 0x0ffc0294, 0x0ffc8284, 0x0ffc8276,
 0x0ffc8268, 0x0ffc825a, 0x0ffc824c, 0x0ffc823e,
 0x0ffc8230, 0x0ffc8222, 0x0ffc8214, 0x0ffc8206,
 0x0ffc81f8, 0x0ffc81ea, 0x0ffd01dc, 0x0ffd01d0,
 0x0ffd01c4, 0x0ffd01b8, 0x0ffd01ac, 0x0ffd01a0,
 0x0ffd0194, 0x0ffd0188, 0x0ffd017c, 0x0ffd0170,
 0x0ffd8164, 0x0ffd815a, 0x0ffd0150, 0x0ffd0144,
 0x0ffd8138, 0x0ffd812e, 0x0ffd8124, 0x0ffd811a,
 0x0ffd8110, 0x0ffd8106, 0x0ffe00fc, 0x0ffe00f4,
 0x0ffd80ec, 0x0ffd80e2, 0x0ffe00d8, 0x0ffe00d0,
 0x0ffe00c8, 0x0ffe00c0, 0x0ffe00b8, 0x0ffe00b0,
 0x0ffe00a8, 0x0ffe00a0, 0x0ffe8098, 0x0ffe8092,
 0x0ffe008c, 0x0ffe0084, 0x0ffe807c, 0x0ffe8076,
 0x0ffe8070, 0x0ffe806a, 0x0ffe8064, 0x0ffe805e,
 0x0ffe8058, 0x0ffe8052, 0x0fff004c, 0x0fff0048,
 0x0ffe8044, 0x0ffe803e, 0x0fff0038, 0x0fff0034,
 0x0fff0030, 0x0fff002c, 0x0fff0028, 0x0fff0024,
 0x0fff8020, 0x0fff801e, 0x0fff001c, 0x0fff0018,
 0x0fff8014, 0x0fff8012, 0x0fff8010, 0x0fff800e,
 0x0fff800c, 0x0fff800a, 0x0fff8008, 0x0fff8006,
 0x0fff8004, 0x0fff8002, 0x00000000, 0x00000000,
 0x00000000, 0x00000000, 0x00000000, 0x00000000,
};

uint32_t shift_scale_unpack_default[] = {
  1432, 1410, 1388, 1366, 1344, 1322, 1300, 1280,
  1260, 1238, 1216, 1196, 1176, 1156, 1136, 1116,
  1096, 1076, 1056, 1038, 1020, 1000, 980, 962,
  944, 926, 908, 890, 872, 856, 840, 822, 804, 788,
  772, 756, 740, 724, 708, 692, 676, 660, 644, 630,
  616, 602, 588, 574, 560, 546, 532, 518, 504, 490,
  476, 464, 452, 440, 428, 416, 404, 392, 380, 368,
  356, 346, 336, 324, 312, 302, 292, 282, 272, 262,
  252, 244, 236, 226, 216, 208, 200, 192, 184, 176,
  168, 160, 152, 146, 140, 132, 124, 118, 112, 106,
  100, 94, 88, 82, 76, 72, 68, 62, 56, 52, 48, 44,
  40, 36, 32, 30, 28, 24, 20, 18, 16, 14, 12, 10,
  8, 6, 4, 2, 0, 0, 0, 0, 0, 0, 0
};

int adrc_master_curve_default[] = {
  0,    32,   64,   96,   128,  160,  192,  224,  256,  288,  320,  352,  384,
  416,  448,  480,  512,  544,  576,  608,  640,  672,  704,  736,  768,  800,
  832,  864,  896,  928,  960,  992,  1024, 1056, 1088, 1120, 1152, 1184, 1216,
  1248, 1280, 1312, 1344, 1376, 1408, 1440, 1472, 1504, 1536, 1568, 1600, 1632,
  1664, 1696, 1728, 1760, 1792, 1824, 1856, 1888, 1920, 1952, 1984, 2016, 2048,
  2080, 2112, 2144, 2176, 2208, 2240, 2272, 2304, 2336, 2368, 2400, 2432, 2464,
  2496, 2528, 2560, 2592, 2624, 2656, 2688, 2720, 2752, 2784, 2816, 2848, 2880,
  2912, 2944, 2976, 3008, 3040, 3072, 3104, 3136, 3168, 3200, 3232, 3264, 3296,
  3328, 3360, 3392, 3424, 3456, 3488, 3520, 3552, 3584, 3616, 3648, 3680, 3712,
  3744, 3776, 3808, 3840, 3872, 3904, 3936, 3968, 4000, 4032, 4064
};

int adrc_master_scale_curve_default[] = {
   1023, 1023, 1023, 1023, 1023, 1023, 1023, 1023, 1023, 1023, 1023,
   1023, 1023, 1023, 1023, 1023, 1023, 1023, 1023, 1023, 1023, 1023,
   1023, 1023, 1023, 1023, 1023, 1023, 1023, 1023, 1023, 1023, 1023,
   1023, 1023, 1023, 1023, 1023, 1023, 1023, 1023, 1023, 1023, 1023,
   1023, 1023, 1023, 1023, 1023, 1023, 1023, 1023, 1023, 1023, 1023,
   1023, 1023, 1023, 1023, 1023, 1023, 1023, 1023, 1023, 1023, 1023,
   1023, 1023, 1023, 1023, 1023, 1023, 1023, 1023, 1023, 1023, 1023,
   1023, 1023, 1023, 1023, 1023, 1023, 1023, 1023, 1023, 1023, 1023,
   1023, 1023, 1023, 1023, 1023, 1023, 1023, 1023, 1023, 1023, 1023,
   1023, 1023, 1023, 1023, 1023, 1023, 1023, 1023, 1023, 1023, 1023,
   1023, 1023, 1023, 1023, 1023, 1023, 1023, 1023, 1023, 1023, 1023,
   1023, 1023, 1023, 1023, 1023, 1023, 1023
};
#endif //__LTM_CURVES_H__

