/* ltm_curves.h
 *
 * Copyright (c) 2014 Qualcomm Technologies, Inc. All Rights Reserved.
 * Qualcomm Technologies Proprietary and Confidential.
 */

#ifndef __LTM_CURVES_H__
#define __LTM_CURVES_H__

uint32_t shift_scale_default[];
uint32_t shift_curve_default[];
uint32_t shift_scale_unpack_default[];
uint32_t master_scale_default[];
uint32_t master_scale_default_0_375[];
uint32_t master_curve_default[];
uint32_t master_curve_default_0_375[];
uint32_t master_unpack_curve_default_0_375[];
uint32_t mask_default[];
uint32_t weight_default[];
uint32_t weight_default_3x3kernel[];
uint32_t weight_default_1x1kernel[];
int adrc_master_curve_default[];
int adrc_master_scale_curve_default[];
int adrc_mask_curve_default[];
int adrc_shift_scale_default[];
int adrc_shift_curve_default[];
uint16_t weight_new_3x3kernel[];
uint16_t weight_new_1x1kernel[];


/* default tables are only used when setprop is set */
/* default DMI entries, already packed */
uint32_t weight_default[] = {
  0x0000070e, 0x00073d7d, 0x000e7dff, 0x0000050b,
  0x00053063, 0x000b63cb, 0x00000205, 0x00021832,
  0x00053267, 0x00000001, 0x00000710, 0x00011021,
  0x00000000, 0x00000103, 0x00000306, 0x00000000,
  0x00000000, 0x00000000
};

uint32_t weight_default_3x3kernel[] = {
  0x00000000, 0x00007db3, 0x0000b3ff, 0x00000000,
  0x0000638e, 0x00008ecb, 0x00000000, 0x00003248,
  0x00004867, 0x00000000, 0x00001017, 0x00001721,
  0x00000000, 0x00000304, 0x00000406, 0x00000000,
  0x00000000, 0x00000000
};

uint32_t weight_default_1x1kernel[] = {
  0x00000000, 0x00000000, 0x000000ff, 0x00000000,
  0x00000000, 0x000000cb, 0x00000000, 0x00000000,
  0x00000067, 0x00000000, 0x00000000, 0x00000021,
  0x00000000, 0x00000000, 0x00000006, 0x00000000,
  0x00000000, 0x00000000
};

uint16_t weight_new_3x3kernel[] = {
  255,   89,   0,   89,   75,   0,   0,   0,   0,
  203,   71,   0,   71,   60,   0,   0,   0,   0,
  113,   39,   0,   39,   33,   0,   0,   0,   0,
  55,    19,   0,   19,   16,   0,   0,   0,   0,
  20,    7,    0,   7,    5,    0,   0,   0,   0,
  4,     1,    0,   1,    1,    0,   0,   0,   0
};

uint16_t weight_new_1x1kernel[] = {
  255,   0,    0,    0,   0,    0,   0,   0,   0,
  203,   0,    0,    0,   0,    0,   0,   0,   0,
  113,   0,    0,    0,   0,    0,   0,   0,   0,
  55,    0,    0,    0,   0,    0,   0,   0,   0,
  20,    0,    0,    0,   0,    0,   0,   0,   0,
  4,     0,    0,    0,   0,    0,   0,   0,   0
};

uint32_t mask_default[] = {
  0x00000800, 0x00000800, 0x00069800, 0x00061869,
  0x000578ca, 0x0004f921, 0x00049970, 0x000459b9,
  0x000429fe, 0x00040a40, 0x00040a80, 0x00040ac0,
  0x00040b00, 0x00040b40, 0x00040b80, 0x00040bc0,
  0x00040c00, 0x00040c40, 0x00040c80, 0x00040cc0,
  0x00040d00, 0x00040d40, 0x00040d80, 0x00040dc0,
  0x00040e00, 0x00040e40, 0x00040e80, 0x00040ec0,
  0x00040f00, 0x00040f40, 0x00040f80, 0x00040fc0,
  0x00040000, 0x00040040, 0x00040080, 0x000400c0,
  0x00040100, 0x00040140, 0x00040180, 0x000401c0,
  0x00040200, 0x00040240, 0x00040280, 0x000402c0,
  0x00040300, 0x00040340, 0x00040380, 0x000403c0,
  0x00040400, 0x00040440, 0x00040480, 0x000404c0,
  0x00040500, 0x00040540, 0x00040580, 0x000405c0,
  0x00043600, 0x00047643, 0x0004f68a, 0x0005a6d9,
  0x00064733, 0x00068797, 0x000007ff, 0x000007ff
};

uint32_t master_curve_default[] = {
  0x00056000, 0x00055056, 0x000520ab, 0x0004e0fd,
  0x0004a14b, 0x00043195, 0x0003d1d8, 0x00037215,
  0x0002f24c, 0x0002727b, 0x000202a2, 0x0001a2c2,
  0x000142dc, 0x0000d2f0, 0x000082fd, 0x00004305,
  0x007ff309, 0x007fc308, 0x007f9304, 0x007f72fd,
  0x007f52f4, 0x007f32e9, 0x007f22dc, 0x007f12ce,
  0x007f02bf, 0x007ef2af, 0x007f029e, 0x007ef28e,
  0x007ef27d, 0x007ee26c, 0x007ef25a, 0x007ee249,
  0x007ef237, 0x007ef226, 0x007ee215, 0x007ef203,
  0x007ee1f2, 0x007ef1e0, 0x007ef1cf, 0x007ee1be,
  0x007ef1ac, 0x007ee19b, 0x007ef189, 0x007ee178,
  0x007ef166, 0x007ef155, 0x007ee144, 0x007ef132,
  0x007ee121, 0x007ef10f, 0x007ef0fe, 0x007ee0ed,
  0x007ef0db, 0x007ee0ca, 0x007ef0b8, 0x007ee0a7,
  0x007ef095, 0x007ef084, 0x007ee073, 0x007ef061,
  0x007ee050, 0x007ef03e, 0x007ef02d, 0x007f301c
};

uint32_t master_curve_default_0_75[] = { // mild 0.75
  0x40000, 0x40040, 0x3d080, 0x3b0bd,
  0x370f8, 0x3312f, 0x2d162, 0x2a18f,
  0x231b9, 0x1d1dc, 0x181f9, 0x14211,
  0x0f225, 0x09234, 0x0623d, 0x03243,
  0x00246, 0x7fd246, 0x7fa243, 0x7fa23d,
  0x7f7237, 0x7f722e, 0x7f5225, 0x7f521a,
  0x7f420f, 0x7f3203, 0x7f41f6, 0x7f31ea,
  0x7f41dd, 0x7f21d1, 0x7f31c3, 0x7f31b6,
  0x7f31a9, 0x7f319c, 0x7f318f, 0x7f3182,
  0x7f3175, 0x7f3168, 0x7f315b, 0x7f314e,
  0x7f3141, 0x7f2134, 0x7f4126, 0x7f211a,
  0x7f310c, 0x7f40ff, 0x7f20f3, 0x7f30e5,
  0x7f30d8, 0x7f30cb, 0x7f30be, 0x7f30b1,
  0x7f30a4, 0x7f3097, 0x7f308a, 0x7f207d,
  0x7f406f, 0x7f3063, 0x7f2056, 0x7f4048,
  0x7f203c, 0x7f302e, 0x7f4021, 0x7f6015
};

uint32_t master_curve_default_0_50[] = { // weak; 0.5
  0x0002b000, 0x0002a02b, 0x00029055, 0x0002707e,
  0x000250a5, 0x000220ca, 0x0001e0ec, 0x0001c10a,
  0x00017126, 0x0001413d, 0x00010151, 0x0000d161,
  0x0000a16e, 0x00006178, 0x0000417e, 0x00002182,
  0x00000184, 0x007fe184, 0x007fc182, 0x007fc17e,
  0x007fa17a, 0x007fa174, 0x007f916e, 0x007f8167,
  0x007f815f, 0x007f8157, 0x007f814f, 0x007f7147,
  0x007f813e, 0x007f7136, 0x007f712d, 0x007f7124,
  0x007f811b, 0x007f7113, 0x007f710a, 0x007f8101,
  0x007f70f9, 0x007f70f0, 0x007f80e7, 0x007f70df,
  0x007f70d6, 0x007f70cd, 0x007f80c4, 0x007f70bc,
  0x007f70b3, 0x007f80aa, 0x007f70a2, 0x007f7099,
  0x007f7090, 0x007f8087, 0x007f707f, 0x007f7076,
  0x007f806d, 0x007f7065, 0x007f705c, 0x007f7053,
  0x007f804a, 0x007f7042, 0x007f7039, 0x007f8030,
  0x007f7028, 0x007f701f, 0x007f8016, 0x007f900e
};

uint32_t master_curve_default_0_375[] = { // weak1; 0.375
  0x00020000, 0x00020020, 0x0001e040, 0x0001e05e,
  0x0001b07c, 0x0001a097, 0x000160b1, 0x000150c7,
  0x000120dc, 0x0000e0ee, 0x0000c0fc, 0x0000a108,
  0x00008112, 0x0000411a, 0x0000311e, 0x00002121,
  0x00000123, 0x007fe123, 0x007fd121, 0x007fd11e,
  0x007fc11b, 0x007fb117, 0x007fb112, 0x007fa10d,
  0x007fa107, 0x007fa101, 0x007fa0fb, 0x007f90f5,
  0x007fa0ee, 0x007f90e8, 0x007fa0e1, 0x007f90db,
  0x007fa0d4, 0x007f90ce, 0x007fa0c7, 0x007f90c1,
  0x007fa0ba, 0x007f90b4, 0x007fa0ad, 0x007f90a7,
  0x007fa0a0, 0x007f909a, 0x007fa093, 0x007f908d,
  0x007f9086, 0x007fa07f, 0x007f9079, 0x007fa072,
  0x007f906c, 0x007fa065, 0x007f905f, 0x007fa058,
  0x007f9052, 0x007fa04b, 0x007f9045, 0x007f903e,
  0x007fa037, 0x007fa031, 0x007f902b, 0x007fa024,
  0x007f901e, 0x007f9017, 0x007fa010, 0x007fb00a
};

uint32_t master_unpack_curve_default_0_375[] = { // weak1; 0.375
  0,   32,  64,  94,  124, 151, 177, 199,
  220, 238, 252, 264, 274, 282, 286, 289,
  291, 291, 289, 286, 283, 279, 274, 269,
  263, 257, 251, 245, 238, 232, 225, 219,
  212, 206, 199, 193, 186, 180, 173, 167,
  160, 154, 147, 141, 134, 127, 121, 114,
  108, 101, 95,  88,  82,  75,  69,  62,
  55,  49,  43,  36,  30,  23,  16,  10, 5
};

uint32_t master_curve_default_0_25[] = { // weaker; 0.25
  0x00015000, 0x00015015, 0x0001502a, 0x0001303f,
  0x00013052, 0x00011065, 0x0000f076, 0x0000e085,
  0x0000b093, 0x0000a09e, 0x000080a8, 0x000070b0,
  0x000050b7, 0x000030bc, 0x000020bf, 0x000010c1,
  0x000000c2, 0x007ff0c2, 0x007fe0c1, 0x007fe0bf,
  0x007fd0bd, 0x007fd0ba, 0x007fc0b7, 0x007fc0b3,
  0x007fc0af, 0x007fc0ab, 0x007fc0a7, 0x007fc0a3,
  0x007fc09f, 0x007fb09b, 0x007fc096, 0x007fb092,
  0x007fc08d, 0x007fc089, 0x007fb085, 0x007fc080,
  0x007fc07c, 0x007fb078, 0x007fc073, 0x007fc06f,
  0x007fb06b, 0x007fc066, 0x007fc062, 0x007fb05e,
  0x007fc059, 0x007fc055, 0x007fb051, 0x007fc04c,
  0x007fb048, 0x007fc043, 0x007fc03f, 0x007fb03b,
  0x007fc036, 0x007fc032, 0x007fb02e, 0x007fc029,
  0x007fc025, 0x007fb021, 0x007fc01c, 0x007fc018,
  0x007fb014, 0x007fc00f, 0x007fc00b, 0x007fc007
};



uint32_t master_scale_default[] = {
  0x00695680, 0x006dc515, 0x007163f1, 0x00746307,
  0x0076e24d, 0x0078f1bb, 0x007a814a, 0x007bd0f2,
  0x007ce0af, 0x007db07d, 0x007e4058, 0x007ec03c,
  0x007f3028, 0x007f601b, 0x007f9011, 0x007fc00a,
  0x007fd006, 0x007ff003, 0x007ff002, 0x007ff001,
  0x00000000, 0x00000000, 0x00000000, 0x00000000,
  0x00000000, 0x00000000, 0x00000000, 0x00000000,
  0x00000000, 0x00000000, 0x00000000, 0x00000000,
  0x00000000, 0x00000000, 0x00000000, 0x00000000,
  0x00000000, 0x00000000, 0x00000000, 0x00000000,
  0x00000000, 0x00000000, 0x00000000, 0x00000000,
  0x00000000, 0x00000000, 0x00000000, 0x00000000,
  0x00000000, 0x00000000, 0x00000000, 0x00000000,
  0x00000000, 0x00000000, 0x00000000, 0x00000000,
  0x00000000, 0x00000000, 0x00000000, 0x00000000,
  0x00000000, 0x00000000, 0x00000000, 0x00000000
};

uint32_t master_scale_default_0_375[] = {
  0x0075a500, 0x0076a45a, 0x007793c4, 0x0078633d,
  0x007942c3, 0x0079f257, 0x007ab1f6, 0x007b51a1,
  0x007bf156, 0x007c9115, 0x007d00de, 0x007d80ae,
  0x007df086, 0x007e5065, 0x007ea04a, 0x007f0034,
  0x007f3024, 0x007f7017, 0x007f900e, 0x007fc007,
  0x007fe003, 0x007ff001, 0x00000000, 0x00000000,
  0x00000000, 0x00000000, 0x00000000, 0x00000000,
  0x00000000, 0x00000000, 0x00000000, 0x00000000,
  0x00000000, 0x00000000, 0x00000000, 0x00000000,
  0x00000000, 0x00000000, 0x00000000, 0x00000000,
  0x00000000, 0x00000000, 0x00000000, 0x00000000,
  0x00000000, 0x007ff000, 0x007fefff, 0x007fdffd,
  0x007fbffa, 0x007f8ff5, 0x007f6fed, 0x007f2fe3,
  0x007eefd5, 0x007e9fc3, 0x007e5fac, 0x007def91,
  0x007d9f6f, 0x007d1f48, 0x007caf19, 0x007c2ee3,
  0x007b9ea5, 0x007b0e5e, 0x007a6e0e, 0x00000db4
};

uint32_t shift_curve_default[] = {
  0x00025000, 0x00024025, 0x00023049, 0x0002106c,
  0x0002008d, 0x0001e0ad, 0x0001d0cb, 0x0001c0e8,
  0x0001a104, 0x0001811e, 0x00018136, 0x0001614e,
  0x00014164, 0x00014178, 0x0001118c, 0x0001119d,
  0x0000f1ae, 0x0000e1bd, 0x0000d1cb, 0x0000c1d8,
  0x0000a1e4, 0x000091ee, 0x000081f7, 0x000061ff,
  0x00006205, 0x0000420b, 0x0000320f, 0x00002212,
  0x00001214, 0x00000215, 0x007fe215, 0x007fe213,
  0x007fc211, 0x007fc20d, 0x007fa209, 0x007fa203,
  0x007f81fd, 0x007f81f5, 0x007f61ed, 0x007f61e3,
  0x007f41d9, 0x007f41cd, 0x007f31c1, 0x007f21b4,
  0x007f11a6, 0x007f0197, 0x007f0187, 0x007ef177,
  0x007ee166, 0x007ed154, 0x007ed141, 0x007ec12e,
  0x007eb11a, 0x007eb105, 0x007ea0f0, 0x007e90da,
  0x007e90c3, 0x007e90ac, 0x007e8095, 0x007e707d,
  0x007e8064, 0x007e604c, 0x007e7032, 0x007e7019
};

uint32_t shift_scale_default[] = {
  0x007f5166, 0x007f515b, 0x007f5150, 0x007f6145,
  0x007f513b, 0x007f6130, 0x007f6126, 0x007f611c,
  0x007f6112, 0x007f7108, 0x007f60ff, 0x007f70f5,
  0x007f70ec, 0x007f70e3, 0x007f80da, 0x007f70d2,
  0x007f80c9, 0x007f80c1, 0x007f80b9, 0x007f80b1,
  0x007f80a9, 0x007f90a1, 0x007f909a, 0x007f9093,
  0x007f908c, 0x007f9085, 0x007f907e, 0x007fa077,
  0x007fa071, 0x007fa06b, 0x007fa065, 0x007fa05f,
  0x007fb059, 0x007fa054, 0x007fb04e, 0x007fb049,
  0x007fb044, 0x007fc03f, 0x007fb03b, 0x007fc036,
  0x007fc032, 0x007fc02e, 0x007fc02a, 0x007fd026,
  0x007fc023, 0x007fd01f, 0x007fd01c, 0x007fd019,
  0x007fd016, 0x007fe013, 0x007fd011, 0x007fe00e,
  0x007fe00c, 0x007fe00a, 0x007ff008, 0x007fe007,
  0x007ff005, 0x007ff004, 0x007ff003, 0x007ff002,
  0x007ff001, 0x00000000, 0x00000000, 0x00000000
};

uint32_t shift_scale_unpack_default[] = {
  358, 347, 336, 325, 315, 304, 294, 284,
  274, 264, 255, 245, 236, 227, 218, 210,
  201, 193, 185, 177, 169, 161, 154, 147,
  140, 133, 126, 119, 113, 107, 101, 95,
  89,  84,  78,  73,  68,  63,  59,  54,
  50,  46,  42,  38,  35,  31,  28,  25,
  22,  19,  17,  14,  12,  10,  8,   7,
  5,   4,   3,   2,   1,   0,   0,   0, 0
};

int adrc_master_curve_default[] = {
  0,    32,   64,   96,   128,  160,  192,  224,  256,  288,  320,  352,  384,
  416,  448,  480,  512,  544,  576,  608,  640,  672,  704,  736,  768,  800,
  832,  864,  896,  928,  960,  992,  1024, 1056, 1088, 1120, 1152, 1184, 1216,
  1248, 1280, 1312, 1344, 1376, 1408, 1440, 1472, 1504, 1536, 1568, 1600, 1632,
  1664, 1696, 1728, 1760, 1792, 1824, 1856, 1888, 1920, 1952, 1984, 2016, 2048,
  2080, 2112, 2144, 2176, 2208, 2240, 2272, 2304, 2336, 2368, 2400, 2432, 2464,
  2496, 2528, 2560, 2592, 2624, 2656, 2688, 2720, 2752, 2784, 2816, 2848, 2880,
  2912, 2944, 2976, 3008, 3040, 3072, 3104, 3136, 3168, 3200, 3232, 3264, 3296,
  3328, 3360, 3392, 3424, 3456, 3488, 3520, 3552, 3584, 3616, 3648, 3680, 3712,
  3744, 3776, 3808, 3840, 3872, 3904, 3936, 3968, 4000, 4032, 4064
};
int adrc_master_scale_curve_default[] = {
   1023, 1023, 1023, 1023, 1023, 1023, 1023, 1023, 1023, 1023, 1023,
   1023, 1023, 1023, 1023, 1023, 1023, 1023, 1023, 1023, 1023, 1023,
   1023, 1023, 1023, 1023, 1023, 1023, 1023, 1023, 1023, 1023, 1023,
   1023, 1023, 1023, 1023, 1023, 1023, 1023, 1023, 1023, 1023, 1023,
   1023, 1023, 1023, 1023, 1023, 1023, 1023, 1023, 1023, 1023, 1023,
   1023, 1023, 1023, 1023, 1023, 1023, 1023, 1023, 1023, 1023, 1023,
   1023, 1023, 1023, 1023, 1023, 1023, 1023, 1023, 1023, 1023, 1023,
   1023, 1023, 1023, 1023, 1023, 1023, 1023, 1023, 1023, 1023, 1023,
   1023, 1023, 1023, 1023, 1023, 1023, 1023, 1023, 1023, 1023, 1023,
   1023, 1023, 1023, 1023, 1023, 1023, 1023, 1023, 1023, 1023, 1023,
   1023, 1023, 1023, 1023, 1023, 1023, 1023, 1023, 1023, 1023, 1023,
   1023, 1023, 1023, 1023, 1023, 1023, 1023
};

#endif //__LTM_CURVES_H__

